TRT-7201-EntropyCalibration2
input.1: 3caa54fc
33: 3db3ff2a
34: 3da96225
35: 3e58bdfe
36: 3e1ec890
37: 3e1ec890
38: 3ebf5c71
39: 3e6f3b45
40: 3ed39757
41: 3ec10b59
42: 3ec10b59
43: 3f1af2b6
44: 3efda273
45: 3f2e19d5
46: 3f101d56
47: 3f4603f6
48: 3f335894
49: 3f335894
50: 3f7c95cb
51: 3f2a6841
52: 3f4a0db9
53: 3f1a12c9
54: 3f252090
55: 3ef64f65
56: 3ef64f65
57: 3f1dc23a
58: 3edf5015
59: 3f1e66a2
60: 3ecc62cb
61: 3f05dff4
62: 3e99b3bd
63: 3e99b3bd
64: 3e99b3bd
65: 3e9f02d4
(Unnamed Layer* 33) [Shuffle]_output: 3e9f02d4
(Unnamed Layer* 34) [Fully Connected]_output: 3e7a560c
66: 3e7a560c
67: 3e3a46b1
(Unnamed Layer* 37) [Shuffle]_output: 3e3a46b1
(Unnamed Layer* 38) [Fully Connected]_output: 3e01a437
68: 3e01a437
69: 3d81c99e
(Unnamed Layer* 41) [Shuffle]_output: 3d81c99e
(Unnamed Layer* 42) [Fully Connected]_output: 3e83567d
70: 3e83567d
